0	0	0	0	0	0	0	0	0	0	0	0	0	0	0	0	0	0	0	0	0	0	0	0	0	0	0	0 
0	0	0	0	0	0	0	0	0	0	0	0	0	0	0	0	0	0	0	0	0	0	0	0	0	0	0	0 
0	0	0	0	0	0	0	0	0	0	0	0	0	0	0	0	0	0	0	0	0	0	0	0	0	0	0	0 
0	0	0	0	0	0	0	0	0	0	0	0	0	0	0	0	0	0	0	0	0	0	0	0	0	0	0	0 
0	0	0	0	0	0	0	0	0	0	5E	D4	AA	6E	4E	0	0	0	0	0	0	0	0	0	0	0	0	0 
0	0	0	0	0	0	0	0	0	0	D9	FC	FC	FD	F2	C4	49	2A	0	0	0	0	0	0	0	0	0	0 
0	0	0	0	0	0	0	0	0	0	67	D7	D7	FD	FC	FC	FC	DE	39	B	0	0	0	0	0	0	0	0 
0	0	0	0	0	0	0	0	0	1	2A	7D	1	6C	E8	FC	FC	FD	FC	AF	3E	0	0	0	0	0	0	0 
0	0	0	0	0	0	0	0	3F	FC	FC	FC	A9	3F	0	25	FC	FD	FC	FC	FC	6E	F	0	0	0	0	0 
0	0	0	0	0	0	0	49	ED	FC	FC	F1	DD	90	0	5	23	D3	FC	FC	FC	FD	4D	0	0	0	0	0 
0	0	0	0	0	0	B	BF	FC	FC	F1	66	29	29	0	0	0	5E	E2	FC	FC	FD	B3	0	0	0	0	0 
0	0	0	0	0	0	49	FC	FC	FC	61	0	0	0	0	0	0	0	1F	D3	FC	FD	B3	0	0	0	0	0 
0	0	0	0	0	2F	E9	FD	FD	53	0	0	0	0	0	0	0	0	0	78	FD	FF	FD	48	0	0	0	0 
0	0	0	0	0	6D	FC	FC	FC	0	0	0	0	0	0	0	0	0	0	5	9F	FD	FC	CE	1F	0	0	0 
0	0	0	0	0	6D	FC	FC	FC	0	0	0	0	0	0	0	0	0	0	0	29	FD	FC	FC	6C	0	0	0 
0	0	0	0	0	6D	FC	FC	FC	0	0	0	0	0	0	0	0	0	0	0	0	FD	FC	FC	6C	0	0	0 
0	0	0	0	0	6E	FD	FD	FD	0	0	0	0	0	0	0	0	0	0	0	3F	FF	FD	FD	6C	0	0	0 
0	0	0	0	0	6D	FC	FC	FC	0	0	0	0	0	0	0	0	0	0	49	ED	FD	FC	F1	4D	0	0	0 
0	0	0	0	0	6D	FC	FC	FC	15	0	0	0	0	0	6	25	B6	B5	E8	FC	FD	B3	3D	0	0	0	0 
0	0	0	0	0	6D	FC	FC	FC	CD	14	0	0	0	2A	A0	FC	FD	FC	FC	FC	6C	F	0	0	0	0	0 
0	0	0	0	0	0	9C	FD	FD	FD	FD	FD	FD	FF	FD	FD	FD	FF	FD	AF	3E	0	0	0	0	0	0	0 
0	0	0	0	0	0	A	95	FC	FC	FC	FC	FC	FD	FC	FC	FC	DE	8A	A	0	0	0	0	0	0	0	0 
0	0	0	0	0	0	0	B	9A	E7	FC	FC	FC	FD	F1	C3	47	29	0	0	0	0	0	0	0	0	0	0 
0	0	0	0	0	0	0	0	0	2F	6C	80	A8	6C	4D	0	0	0	0	0	0	0	0	0	0	0	0	0 
0	0	0	0	0	0	0	0	0	0	0	0	0	0	0	0	0	0	0	0	0	0	0	0	0	0	0	0 
0	0	0	0	0	0	0	0	0	0	0	0	0	0	0	0	0	0	0	0	0	0	0	0	0	0	0	0 
0	0	0	0	0	0	0	0	0	0	0	0	0	0	0	0	0	0	0	0	0	0	0	0	0	0	0	0 
0	0	0	0	0	0	0	0	0	0	0	0	0	0	0	0	0	0	0	0	0	0	0	0	0	0	0	0 
F	3A	3E
D9	20	32
A0	A1	99
FF	FC	1F
14	F	FF
46	33	23
14	23	3B
DC	11	29
D3	28	28
3E	1C	25
2E	FE	EA
2A	FE	D0
E9
B
F4
3
FB
F6
F7
FB
EA
FB
F0
EE
F5
6
F7
F5
FA
4
1
C
EF
F8
F7
FD
FF
0
F5
ED
F8
FF
F5
FD
DD
A
7
FA
FD
FD
8
F
12
0
0
FC
1F
11
4
F6
1B
6
0
2
19
9
9
0
E5
2
F6
F9
E1
FE
9
B
E8
14
1E
A
1C
C
7
F
30
3
F9
F7
2C
FC
F9
B
42
8
B
0
5
FA
FD
1
7
FA
2
FB
1C
FF
D
3
25
F3
D
F
2C
4
3
F4
D
FF
7
0
3
EE
F7
FB
2
F2
F4
4
13
FD
FD
FE
20
FC
6
F9
8
EA
EF
F0
FF
A
E
4
C9
F6
12
FD
C3
3
F7
3
F7
F4
F8
F3
FF
3
0
FF
5
3
FE
2
FC
10
0
F9
D7
5
0
C
E0
3
2
5
E5
FC
0
10
2
F4
F7
2
F8
FF
3
FD
0
13
8
1
B
13
D
C
FC
6
5
0
F4
14
3
0
FE
D
6
F7
D1
D1
C8
CA
10
ED
F2
ED
FE
5
FB
8
DE
12
15
0
FD
C
FB
3
13
FE
E6
F8
9
DB
D2
E1
9
F3
F0
DA
14
4
FB
7
1E
8
5
B
3
F9
3
FE
F3
FA
2
6
DB
0
3
8
EF
F2
EB
F6
22
F7
FF
9
28
FE
F6
7
C
FD
FF
8
FB
18
B
F
E5
9
16
1D
DD
4
7
7
FA
EF
DB
F6
F
EF
FA
EB
F7
1
3
3
E0
F
6
10
F6
1
4
9
21
7
E
9
C
E
1
8
DB
B
FB
9
E
F4
FB
F0
D
FE
FD
7
4
8
3
FC
1
4
FE
1
1C
15
10
8
2
1
A
9
EE
F7
F2
F
11
F7
FD
F6
F7
5
F9
FB
E
E
A
7
C
10
D
12
7
5
F
1D
E6
0
F1
1
FA
E0
E5
E2
F7
D8
E9
DE
7
8
F9
A
F
E
FE
6
13
2
FB
FD
0
FB
3
7
F6
FA
EE
EC
CE
CB
D7
D1
9
F6
FE
F9
FE
B
B
F7
FE
FD
7
FA
FB
FC
A
3
9
0
7
F9
3
F5
1
9
5
6
FD
F8
FA
1
7
F7
8
0
FF
9
F8
6
3
F9
6
4
F6
7
0
FA
F9
FB
FE
FB
FA
8
F6
6
0
F8
2
A
8
7
FD
A
FF
4
5
FA
4
F6
FC
F9
F6
F9
7
FF
7
FD
2
2
FB
8
2
9
2
1
0
FA
FF
F7
FF
6
F6
0
F6
3
F7
2
F9
8
1
FA
FA
FC
FC
F5
FF
FD
A
F7
F9
FF
5
F5
7
F8
3
4
F7
F7
F7
F6
7
FD
FA
F9
FB
F5
6
3
1
3
2
F9
8
FA
1
2
FD
9
F7
F5
6
F6
FB
F8
3
F8
2
FB
3
4
F6
A
F5
6
4
F8
0
F9
2
0
FC
0
F7
5
2
F7
6
F6
F6
F9
A
3
FE
F9
7
9
F9
F7
FA
FD
2
F7
FC
3
0
FF
F7
FC
8
F6
6
FF
FD
0
0
FA
27
1B
F
12
F2
15
B
13
F3
FA
18
1B
ED
F8
6
C
F2
F4
10
B
F
1
6
9
FB
F
10
16
B
C
FC
4
F
FE
FC
F8
7
F7
FC
FB
B
C
4
FD
10
B
F0
FD
B
F9
F5
FA
FD
F8
F4
E9
F0
FA
FB
6
E0
B
5
7
EA
11
A
14
E
7
0
FF
9
4
F1
FB
F
FA
F9
EE
EF
F8
F6
F2
F4
FD
B
8
F5
FD
A
4
FC
F9
FE
1
1B
A
8
F3
EE
12
17
10
E8
FD
10
A
F9
FA
2
B
F2
FE
FD
FF
24
FE
FA
F9
2E
FC
EC
F5
7
FE
5
3
CF
6
2
F
EE
8
5
8
E3
F5
F9
F8
F9
FA
FD
FD
1
ED
1
8
FA
2
3
D
E6
0
8
9
FD
EB
FA
FD
10
F6
F2
FE
FA
6
FF
FC
1B
1C
E
17
FA
1B
6
9
DF
1D
6
0
F2
12
2
F6
3
14
C
FB
7
11
4
A
9
8
E
4
EB
2
EE
F9
FD
EF
E0
EA
E8
FA
EB
E6
EF
14
E
1
F1
FE
F9
F7
E7
2
F7
FE
F4
E7
E9
F4
FE
FA
3
3
3
FD
0
F3
E
2
FF
FD
2
3
F2
3
F9
FA
F9
2
F7
FE
E
F7
E6
4
FD
FC
8
4
3
13
4
5
A
FB
B
C
7
1
F9
14
16
A
DF
17
C
A
DB
9
A
F
DF
2
F6
5
5
C
2
16
D
0
7
4
7
F4
F8
FB
D1
B
18
6
F5
19
FD
25
24
FA
2
FF
F4
F4
FA
F
E0
DB
E3
E2
DD
F5
9
F5
C6
5
C
10
E9
D
D
1E
E
F6
F3
FC
14
FF
FD
F9
2
E4
F0
F5
F5
0
F8
F2
F0
F7
F8
FD
E9
F3
FC
F9
1
5
F9
FE
FE
FD
F6
EE
4
0
F7
F7
2
F1
FD
E4
4
5
FD
FB
6
2
7
FD
FD
FE
FE
1
12
FF
10
FD
B
FC
7
D
F0
10
7
F8
FF
F4
F7
EE
10
32
24
25
3
5
15
27
FD
1D
22
1F
6
3
8
1A
E
13
1B
10
19
8
11
15
2
1A
16
1A
F9
FE
F1
6
DF
F4
FE
0
D2
2
FF
0
EE
8
A
C
F
FF
F7
B
2B
F8
FD
A
27
F8
F
FA
E8
EB
F2
E8
E2
1
6
8
EC
4
FE
2
ED
3
F5
2
19
E6
DA
E5
36
FF
6
F5
15
3
14
8
F5
F3
E3
2
A
FB
A
F5
5
FE
13
FA
13
17
1B
1A
1A
FF
FD
FF
1F
F6
2
0
9
4
F
6
F1
EF
F2
F4
F9
FD
4
FD
F2
9
12
A
16
10
13
20
FC
FC
FD
F2
FA
FB
F6
F9
D
9
FB
EE
F6
F6
F3
0
6
F4
F6
EC
F
B
A
4
19
0
1
A
1A
10
F
7
E
12
FF
13
FD
18
9
C
FA
10
FC
F
3
F5
0
1
9
F5
FB
F2
14
1
0
0
C
F7
7
7
3
F6
9
1
1A
18
16
8
A
6
FA
FD
FC
A
1
3
19
B
FE
FF
1F
F
FF
F7
0
F5
F5
F1
F0
F0
EC
EC
10
FF
A
FC
15
6
FF
3
24
FA
F7
1
23
A
0
1
2C
13
1
7
F
FE
B
A
E5
FC
3
FF
F4
EC
F5
EF
9
8
D
FE
1F
7
F7
FE
42
F8
E3
FA
2C
2
FE
F7
FA
A
8
6
D3
10
FA
B
EC
FC
C
4
FF
F4
5
8
21
F5
EA
EE
3B
F0
FA
EC
15
14
D
8
F4
9
0
F
EE
F8
F7
4
36
EF
FA
EF
FA
8
A
FF
2
7
8
D
21
3
FD
8
21
9
0
D
0
1
FD
F3
E
FD
F6
EF
2E
7
F9
F0
FF
2
6
F
B
8
9
F
2
A
F0
FD
F8
F6
F4
F9
B
D
4
A
13
4
3
B
8
4
6
FE
0
9
FE
6
0
FE
FE
2
7
12
5
7
F9
13
F
A
1
C
4
1
0
F9
FD
FB
3
3
B
C
E9
F5
F2
F9
EB
F7
F9
EA
D5
FE
F2
E4
E2
4
F5
2
E8
4
4
F6
ED
FB
5
F6
F9
D
FF
1
11
7
15
D
FE
0
F
FC
FD
FB
E
FD
E3
0
E
13
E2
FF
16
D
FA
4
14
10
7
14
28
F
2
F2
F8
F2
DF
FF
0
F9
DA
FF
14
D
C4
F1
E6
ED
C3
F6
B
6
F5
7
FF
4
8
1
8
F7
F4
F2
1
F2
FE
5
1
7
17
10
18
A
17
11
8
3
3
1C
F
13
D
2
1
A
EF
F7
F3
FE
F6
1
FB
FA
F
FA
A
FD
F
F1
6
0
2A
F7
11
4
13
FB
7
E
C
F0
0
F2
FA
F6
4
FF
F9
ED
EE
F8
F7
F4
5
1
EA
F4
FD
FE
F6
0
1
F6
3
7
FD
FA
9
B
FE
FD
F2
3
FC
F4
F1
F3
2
2
F8
5
FA
FC
0
5
4
1
C
F4
0
FD
A
F2
0
FA
6
F7
A
3
1
7
2
1
8
B
FE
8
1
FD
4
6
FB
FF
FD
1
FC
FA
3
FD
FD
0
0
F7
1
5
7
FD
6
A
B
FF
6
0
F5
F8
2
5
F6
F9
FE
2
4
FE
9
3
2
F7
2
0
FB
F6
A
7
1
8
1
FD
F7
6
A
A
3
1
F8
F7
5
A
9
FA
FC
FF
FC
FB
3
FF
9
F6
F8
2
F6
F6
5
FC
F6
3
1
8
FC
5
FC
FD
FA
5
1
8
5
FB
FB
F9
6
F8
F6
3
F6
3
FC
0
FA
2
FF
FC
0
F5
4
2
FD
F7
1
FF
FB
F7
FE
FD
1
F8
FF
2
7
6
FF
1
2
FF
FC
FE
F6
0
7
FB
FE
4
F6
7
FA
A
4
FE
FA
F7
2
2
2
4
1
1
3
F6
FE
FB
F6
F7
3
B
7
FB
F9
F8
7
8
9
4
3
0
FA
A
A
A
FB
FA
FE
4
F8
F9
2
F5
A
F8
FE
8
6
FE
0
FB
FC
FF
B
F9
F7
F8
EA
E9
DD
F1
15
E8
F4
E6
1F
2
FD
F9
22
F4
F2
FC
E
FA
F3
FE
FE
F9
F6
F2
2
FC
2
F4
EC
FD
3
F3
9
F6
F8
8
1
F9
FA
FC
16
11
FF
B
22
8
5
4
F
FC
F8
F3
EC
EB
2
EB
FC
F1
FB
F3
6
1
3
FF
F8
4
19
18
F
E7
0
FA
13
FE
12
FD
F4
F
B
7
C5
5
FD
9
F5
EF
FA
F0
D8
13
12
5
EC
11
2
11
FA
FC
F0
EB
DC
3
E
2
ED
17
17
16
FC
A
3
E
F4
FB
6
F1
DB
8
C
C
E0
1A
1C
1F
EC
F5
FE
10
FB
D
C
A
19
0
F2
2
28
9
F7
FD
FF
FC
F5
F2
FC
F2
F1
EC
13
FB
0
FD
D
FC
B
FA
9
F6
FA
4
1C
FC
2
6
5
FF
F8
3
E0
DF
E5
EF
7
F9
B
F7
6
EC
4
FA
9
FD
3
3
A
F2
5
F9
7
F6
4
3
F0
F0
F5
FC
C
14
E2
C7
FC
F0
D2
E1
F7
1A
D0
7
3
EC
36
18
F9
EF
15
C5
CA
FD
F5
E7
FF
F
28
DC
FF
1D
4
1C
16
E8
E7
F3
1C
E7
1C
CF
EE
5
C
FC
0
E7
DD
45
E6
F2
2D
FA
0
F0
DC
16
FF
DE
FC
E1
E4
F
E3
FA
EF
26
BC
F5
FD
FE
D
14
F8
E
33
B6
EC
DE
FF
F3
10
F3
7
C5
17
E
D
F1
F3
4
D
F2
E
2A
A
E5
5
FA
1E
3
FD
CA
5
1
1
2D
E5
E6
0
D4
F3
EB
E6
2C
E4
18
10
C9
EE
D3
10
C7
14
F8
DE
18
2B
E4
E3
D1
15
C8
E8
D
C8
19
CD
15
E5
D4